
#ifdef __has_attribute
#define HAVE_ATTRIBUTE(x) __has_attribute(x)
#else
#define HAVE_ATTRIBUTE(x) 0
#endif
#if HAVE_ATTRIBUTE(aligned) || (defined(__GNUC__) && !defined(__clang__))
#define DATA_ALIGN_ATTRIBUTE __attribute__((aligned(4)))
#else
#define DATA_ALIGN_ATTRIBUTE
#endif

const unsigned char Fault_model[] DATA_ALIGN_ATTRIBUTE = {
	0x1c, 0x00, 0x00, 0x00, 0x54, 0x46, 0x4c, 0x33, 0x14, 0x00, 0x20, 0x00, 
	0x1c, 0x00, 0x18, 0x00, 0x14, 0x00, 0x10, 0x00, 0x0c, 0x00, 0x00, 0x00, 
	0x08, 0x00, 0x04, 0x00, 0x14, 0x00, 0x00, 0x00, 0x1c, 0x00, 0x00, 0x00, 
	0x90, 0x00, 0x00, 0x00, 0xe8, 0x00, 0x00, 0x00, 0x14, 0x16, 0x00, 0x00, 
	0x24, 0x16, 0x00, 0x00, 0x70, 0x1b, 0x00, 0x00, 0x03, 0x00, 0x00, 0x00, 
	0x01, 0x00, 0x00, 0x00, 0x10, 0x00, 0x00, 0x00, 0x00, 0x00, 0x0a, 0x00, 
	0x10, 0x00, 0x0c, 0x00, 0x08, 0x00, 0x04, 0x00, 0x0a, 0x00, 0x00, 0x00, 
	0x0c, 0x00, 0x00, 0x00, 0x1c, 0x00, 0x00, 0x00, 0x38, 0x00, 0x00, 0x00, 
	0x0f, 0x00, 0x00, 0x00, 0x73, 0x65, 0x72, 0x76, 0x69, 0x6e, 0x67, 0x5f, 
	0x64, 0x65, 0x66, 0x61, 0x75, 0x6c, 0x74, 0x00, 0x01, 0x00, 0x00, 0x00, 
	0x04, 0x00, 0x00, 0x00, 0x98, 0xff, 0xff, 0xff, 0x09, 0x00, 0x00, 0x00, 
	0x04, 0x00, 0x00, 0x00, 0x07, 0x00, 0x00, 0x00, 0x64, 0x65, 0x6e, 0x73, 
	0x65, 0x5f, 0x32, 0x00, 0x01, 0x00, 0x00, 0x00, 0x04, 0x00, 0x00, 0x00, 
	0xf6, 0xec, 0xff, 0xff, 0x04, 0x00, 0x00, 0x00, 0x0b, 0x00, 0x00, 0x00, 
	0x64, 0x65, 0x6e, 0x73, 0x65, 0x5f, 0x69, 0x6e, 0x70, 0x75, 0x74, 0x00, 
	0x02, 0x00, 0x00, 0x00, 0x34, 0x00, 0x00, 0x00, 0x04, 0x00, 0x00, 0x00, 
	0xdc, 0xff, 0xff, 0xff, 0x0c, 0x00, 0x00, 0x00, 0x04, 0x00, 0x00, 0x00, 
	0x13, 0x00, 0x00, 0x00, 0x43, 0x4f, 0x4e, 0x56, 0x45, 0x52, 0x53, 0x49, 
	0x4f, 0x4e, 0x5f, 0x4d, 0x45, 0x54, 0x41, 0x44, 0x41, 0x54, 0x41, 0x00, 
	0x08, 0x00, 0x0c, 0x00, 0x08, 0x00, 0x04, 0x00, 0x08, 0x00, 0x00, 0x00, 
	0x0b, 0x00, 0x00, 0x00, 0x04, 0x00, 0x00, 0x00, 0x13, 0x00, 0x00, 0x00, 
	0x6d, 0x69, 0x6e, 0x5f, 0x72, 0x75, 0x6e, 0x74, 0x69, 0x6d, 0x65, 0x5f, 
	0x76, 0x65, 0x72, 0x73, 0x69, 0x6f, 0x6e, 0x00, 0x0d, 0x00, 0x00, 0x00, 
	0x28, 0x15, 0x00, 0x00, 0x20, 0x15, 0x00, 0x00, 0x90, 0x12, 0x00, 0x00, 
	0xf8, 0x11, 0x00, 0x00, 0xd4, 0x11, 0x00, 0x00, 0xc4, 0x10, 0x00, 0x00, 
	0xb4, 0x08, 0x00, 0x00, 0xa4, 0x00, 0x00, 0x00, 0x9c, 0x00, 0x00, 0x00, 
	0x94, 0x00, 0x00, 0x00, 0x8c, 0x00, 0x00, 0x00, 0x6c, 0x00, 0x00, 0x00, 
	0x04, 0x00, 0x00, 0x00, 0xa2, 0xed, 0xff, 0xff, 0x04, 0x00, 0x00, 0x00, 
	0x58, 0x00, 0x00, 0x00, 0x0c, 0x00, 0x00, 0x00, 0x08, 0x00, 0x0e, 0x00, 
	0x08, 0x00, 0x04, 0x00, 0x08, 0x00, 0x00, 0x00, 0x10, 0x00, 0x00, 0x00, 
	0x28, 0x00, 0x00, 0x00, 0x00, 0x00, 0x06, 0x00, 0x08, 0x00, 0x04, 0x00, 
	0x06, 0x00, 0x00, 0x00, 0x04, 0x00, 0x00, 0x00, 0x01, 0x00, 0x00, 0x00, 
	0xea, 0x03, 0x00, 0x00, 0x00, 0x00, 0x0a, 0x00, 0x10, 0x00, 0x0c, 0x00, 
	0x08, 0x00, 0x04, 0x00, 0x0a, 0x00, 0x00, 0x00, 0x02, 0x00, 0x00, 0x00, 
	0x02, 0x00, 0x00, 0x00, 0x04, 0x00, 0x00, 0x00, 0x06, 0x00, 0x00, 0x00, 
	0x32, 0x2e, 0x31, 0x31, 0x2e, 0x30, 0x00, 0x00, 0x06, 0xee, 0xff, 0xff, 
	0x04, 0x00, 0x00, 0x00, 0x10, 0x00, 0x00, 0x00, 0x32, 0x2e, 0x33, 0x2e, 
	0x30, 0x00, 0x00, 0x00, 0x00, 0x00, 0x00, 0x00, 0x00, 0x00, 0x00, 0x00, 
	0x5c, 0xe6, 0xff, 0xff, 0x60, 0xe6, 0xff, 0xff, 0x64, 0xe6, 0xff, 0xff, 
	0x2e, 0xee, 0xff, 0xff, 0x04, 0x00, 0x00, 0x00, 0x00, 0x08, 0x00, 0x00, 
	0x0e, 0x21, 0x17, 0x08, 0x1e, 0xe5, 0xe5, 0x06, 0xeb, 0xdb, 0x24, 0xe5, 
	0xef, 0x08, 0x14, 0xdf, 0xdb, 0xe0, 0x04, 0xf6, 0x05, 0x0e, 0xef, 0x0f, 
	0xdc, 0xf4, 0x10, 0x04, 0xe9, 0xdb, 0x01, 0xda, 0x16, 0x01, 0x10, 0x14, 
	0x10, 0xf8, 0xe1, 0xf3, 0x00, 0xff, 0xde, 0x00, 0x1a, 0x13, 0x19, 0x0b, 
	0xfa, 0x1f, 0xf6, 0x06, 0x0a, 0x19, 0xfc, 0xfc, 0x1a, 0x00, 0x0b, 0xde, 
	0xfc, 0x18, 0xe4, 0x19, 0x1a, 0x12, 0x00, 0x07, 0x16, 0xe2, 0x0b, 0xf8, 
	0xff, 0xda, 0xf8, 0x0d, 0x20, 0x14, 0xfd, 0x28, 0xdf, 0xf1, 0xdc, 0x03, 
	0x14, 0xdb, 0xea, 0xee, 0xea, 0xfb, 0xfb, 0xf9, 0x22, 0xe9, 0x0a, 0x14, 
	0xf3, 0xfe, 0x13, 0x20, 0xe7, 0xfd, 0xe2, 0x00, 0x0c, 0x13, 0xf4, 0xfd, 
	0xe4, 0x0d, 0x05, 0xe4, 0x25, 0x1c, 0xe4, 0x05, 0x08, 0x01, 0x21, 0x15, 
	0xf4, 0x05, 0x21, 0x0b, 0x0c, 0xf7, 0xf4, 0x18, 0xf9, 0xf0, 0xe9, 0xfe, 
	0x15, 0xf8, 0x1a, 0xfe, 0x14, 0xfe, 0xfc, 0xe1, 0x0f, 0xff, 0x1d, 0xe9, 
	0xfa, 0x15, 0x11, 0xf2, 0x22, 0x18, 0x02, 0x19, 0xe9, 0x1b, 0xea, 0x07, 
	0xde, 0xe8, 0x24, 0xea, 0xe0, 0xd9, 0xdd, 0xe4, 0x1e, 0xfb, 0xf0, 0xf1, 
	0x0e, 0xe7, 0x24, 0x07, 0xe0, 0xf2, 0xfc, 0x1d, 0xd9, 0xe5, 0x14, 0xe5, 
	0xe6, 0xf9, 0x02, 0x02, 0xe5, 0x12, 0x04, 0xf4, 0x00, 0xf8, 0x0d, 0x04, 
	0x0a, 0xdc, 0x06, 0xe4, 0xef, 0xea, 0x19, 0x25, 0xfb, 0xfa, 0x1d, 0xdd, 
	0x1a, 0x25, 0xe1, 0xed, 0x12, 0x1f, 0xde, 0xda, 0x12, 0x11, 0x01, 0x1b, 
	0xdb, 0x1c, 0x1e, 0xda, 0xda, 0xf4, 0x0d, 0xea, 0x07, 0x0a, 0x19, 0xfe, 
	0xf3, 0x0f, 0xe1, 0x14, 0xf5, 0x02, 0x0b, 0x00, 0xe4, 0x23, 0x20, 0xe0, 
	0xe7, 0x22, 0x13, 0xe5, 0x23, 0xe5, 0x0e, 0xef, 0xee, 0x0a, 0x16, 0xe9, 
	0xe7, 0x02, 0x01, 0xe0, 0xfc, 0xeb, 0x1a, 0x10, 0xf8, 0xea, 0x09, 0xec, 
	0x22, 0x11, 0xfe, 0xde, 0x15, 0x1b, 0xff, 0xe9, 0xe2, 0xe7, 0xe8, 0x10, 
	0x25, 0xef, 0x1b, 0x02, 0x06, 0x02, 0xe6, 0xf1, 0xf3, 0x17, 0x18, 0x21, 
	0xd8, 0xe9, 0x0e, 0x16, 0xdc, 0x25, 0x24, 0x21, 0xfa, 0x0e, 0xfc, 0x14, 
	0x0c, 0x1f, 0x1f, 0xea, 0xf6, 0xd6, 0x1c, 0x1c, 0x1c, 0x25, 0x19, 0xed, 
	0xe6, 0xeb, 0x08, 0x23, 0x26, 0xec, 0x09, 0x23, 0x06, 0x12, 0xf2, 0x1d, 
	0x09, 0xec, 0x19, 0xfa, 0x1b, 0x15, 0xeb, 0xeb, 0xea, 0x28, 0xfd, 0x11, 
	0x02, 0xf5, 0x28, 0xec, 0x0e, 0x13, 0x05, 0x04, 0xe2, 0xf8, 0x03, 0x29, 
	0x0e, 0x10, 0xfc, 0xf8, 0xdf, 0xe7, 0xdb, 0x23, 0x0a, 0xe9, 0xe2, 0x1e, 
	0x0d, 0x1e, 0xe4, 0xfa, 0x0d, 0xed, 0xfc, 0xdf, 0x0f, 0x15, 0x14, 0xf3, 
	0xe0, 0x19, 0xf0, 0xf1, 0x1c, 0x22, 0xf0, 0xe2, 0x2e, 0xe8, 0xf7, 0xe4, 
	0xe0, 0x0e, 0x00, 0xdb, 0x04, 0xf5, 0x00, 0x08, 0xdd, 0x0e, 0xfa, 0xf2, 
	0xf7, 0x18, 0x17, 0xef, 0xf5, 0xdf, 0xf6, 0xe6, 0x10, 0xe3, 0x16, 0xe8, 
	0xf8, 0xff, 0x1f, 0x20, 0xef, 0xf2, 0xf4, 0x1f, 0x0a, 0x00, 0x12, 0x1d, 
	0xf1, 0x1b, 0xee, 0xe4, 0x06, 0xff, 0xdc, 0x14, 0x1f, 0xd9, 0x28, 0x27, 
	0x0f, 0x00, 0x16, 0xf8, 0xf9, 0xee, 0xda, 0xeb, 0x1a, 0xf4, 0xfb, 0x0d, 
	0xea, 0x03, 0xfc, 0xf5, 0x06, 0xfd, 0xe9, 0x0a, 0xef, 0x25, 0x18, 0xfa, 
	0x03, 0xfd, 0xf4, 0x49, 0xd9, 0x1e, 0xe6, 0x0d, 0xb6, 0xf4, 0x24, 0x07, 
	0xde, 0xce, 0x20, 0x15, 0xe8, 0xcd, 0x29, 0xfe, 0xed, 0xee, 0x04, 0x07, 
	0x04, 0xfb, 0x1f, 0xfb, 0x05, 0x23, 0xe1, 0x11, 0x0e, 0xe2, 0x18, 0xdf, 
	0x0e, 0xff, 0x1f, 0xea, 0x1a, 0x97, 0xf1, 0x06, 0xf7, 0xe7, 0x11, 0xf6, 
	0xea, 0xda, 0xc8, 0x20, 0xfd, 0xef, 0x19, 0xfb, 0x00, 0xf0, 0x11, 0xfa, 
	0xf3, 0x0b, 0x04, 0xf6, 0x24, 0xf7, 0xd7, 0x06, 0xfe, 0xfe, 0xe9, 0xfd, 
	0x1e, 0x1c, 0xfa, 0xef, 0xfa, 0x09, 0xe1, 0x1b, 0x05, 0xed, 0xf8, 0xec, 
	0xe1, 0xe3, 0xf6, 0x1d, 0xed, 0x23, 0xf1, 0xe4, 0xe7, 0x1b, 0x16, 0x0e, 
	0x1d, 0xee, 0xdd, 0xee, 0xe1, 0xec, 0x06, 0x05, 0x00, 0x01, 0xe4, 0x01, 
	0x20, 0x26, 0xe1, 0x03, 0x23, 0xe9, 0x1e, 0x1c, 0x0b, 0xf7, 0xee, 0x0e, 
	0xe1, 0x1a, 0x00, 0xdb, 0x15, 0x0e, 0xe4, 0xf8, 0xfa, 0x0d, 0xeb, 0xdb, 
	0xfd, 0xf2, 0xf5, 0xe7, 0x0c, 0xed, 0x19, 0xe7, 0x0d, 0x11, 0xec, 0x1a, 
	0xdd, 0xe8, 0xe0, 0xe2, 0xda, 0xf9, 0xdd, 0x06, 0x0f, 0x00, 0x1c, 0x15, 
	0xf7, 0x0a, 0xdc, 0x1e, 0xf8, 0xd9, 0x00, 0x23, 0xe6, 0x12, 0xed, 0xf6, 
	0xe4, 0xfe, 0xea, 0xd9, 0x11, 0xfd, 0xe6, 0xe9, 0xe1, 0xdf, 0x16, 0xe3, 
	0xfa, 0x20, 0xe0, 0x19, 0xfb, 0x1a, 0x18, 0x21, 0x11, 0x15, 0x21, 0x0b, 
	0xf9, 0xf3, 0xf6, 0x25, 0xf4, 0xda, 0xd6, 0xf4, 0xe6, 0x18, 0xf7, 0xe2, 
	0x0d, 0xfb, 0xda, 0x1f, 0xf4, 0xec, 0xe3, 0xe9, 0xe5, 0x15, 0x16, 0xef, 
	0x02, 0x20, 0x18, 0x05, 0x25, 0x04, 0x22, 0xd9, 0x26, 0xe6, 0x29, 0x16, 
	0xff, 0x1c, 0x03, 0xf2, 0xf0, 0x11, 0x14, 0x04, 0x24, 0xfb, 0x00, 0xf1, 
	0x02, 0xdd, 0xeb, 0xf4, 0xdc, 0x0e, 0x23, 0x02, 0xeb, 0x1c, 0xf3, 0x26, 
	0xec, 0x1c, 0xf6, 0xda, 0xfe, 0x11, 0x1e, 0x12, 0x02, 0xfb, 0xfe, 0xfb, 
	0x14, 0x23, 0xf7, 0x0b, 0x1d, 0xec, 0xf1, 0xee, 0x11, 0x0a, 0x1d, 0xf5, 
	0xd8, 0xea, 0x21, 0x22, 0xf5, 0xdf, 0xfc, 0x19, 0xda, 0xe8, 0x10, 0xe0, 
	0xd9, 0xee, 0x0a, 0xe9, 0xe1, 0x16, 0x24, 0x18, 0x1e, 0x27, 0x0c, 0xe6, 
	0x0e, 0xf9, 0xd6, 0x05, 0xfb, 0x16, 0xfc, 0x07, 0xec, 0x05, 0x1f, 0x14, 
	0xdd, 0xe9, 0xea, 0x13, 0xdd, 0x07, 0x15, 0xe6, 0xe8, 0xfb, 0x21, 0xe2, 
	0x11, 0xf4, 0xf8, 0x03, 0xf6, 0x0c, 0xf2, 0x00, 0xda, 0xe1, 0x05, 0xf8, 
	0xfb, 0xf0, 0x21, 0xfb, 0x07, 0x15, 0xec, 0x11, 0xd7, 0xed, 0xf5, 0x10, 
	0xda, 0x0c, 0x1a, 0x9f, 0x0a, 0xef, 0x13, 0x14, 0xf0, 0x00, 0xfc, 0x10, 
	0x01, 0xd3, 0x1c, 0x1f, 0xeb, 0x0d, 0xf6, 0x20, 0xf3, 0x01, 0xf8, 0x21, 
	0x1d, 0x1f, 0xf1, 0x03, 0xee, 0xe3, 0x02, 0xe4, 0xda, 0x18, 0x18, 0xe5, 
	0xe4, 0xdb, 0xf4, 0x12, 0xda, 0x14, 0x0b, 0xf4, 0x26, 0xf4, 0xff, 0xde, 
	0xd9, 0x0b, 0xff, 0xed, 0x0a, 0x06, 0x0d, 0x02, 0xda, 0xd8, 0xe7, 0x22, 
	0xf9, 0xf1, 0x07, 0x17, 0xe2, 0xef, 0x04, 0xe8, 0x10, 0x1f, 0x17, 0xdf, 
	0x0d, 0xed, 0xdf, 0xf1, 0x11, 0xf5, 0xe7, 0x23, 0x09, 0x08, 0x1c, 0xe0, 
	0x02, 0x12, 0xf8, 0x11, 0x1e, 0xf7, 0x04, 0x18, 0x04, 0xf4, 0xf5, 0x0b, 
	0xed, 0xeb, 0x0f, 0xeb, 0x1c, 0xea, 0x15, 0xd5, 0x0d, 0x19, 0x24, 0xfb, 
	0xff, 0xfc, 0x07, 0xde, 0x02, 0x16, 0xda, 0x03, 0xf0, 0x17, 0x23, 0x17, 
	0x1d, 0xe8, 0x04, 0xf8, 0xe7, 0x05, 0x10, 0x23, 0x03, 0xfb, 0x22, 0x18, 
	0x1a, 0xef, 0x1f, 0xf0, 0x15, 0x0f, 0x18, 0xf2, 0xe7, 0x14, 0x22, 0x15, 
	0xe8, 0x07, 0x13, 0xf5, 0xdd, 0xeb, 0x23, 0x0c, 0xf4, 0x1b, 0xfc, 0x1a, 
	0x02, 0xde, 0xf2, 0x03, 0x00, 0xed, 0x08, 0xf5, 0xf8, 0xe6, 0x26, 0x12, 
	0x19, 0x22, 0x07, 0xfc, 0x15, 0xe9, 0xdd, 0x22, 0xef, 0x06, 0xec, 0xff, 
	0x01, 0xf0, 0xfa, 0xfb, 0x18, 0xe2, 0xfe, 0x0d, 0x24, 0xe6, 0xe5, 0x28, 
	0xf5, 0x02, 0x02, 0xe1, 0xe8, 0x02, 0xf6, 0x1d, 0x0a, 0x00, 0x22, 0x14, 
	0xf0, 0xd9, 0x04, 0xe5, 0xed, 0x02, 0xfb, 0xe5, 0x0d, 0x04, 0xe7, 0x0b, 
	0xf3, 0x16, 0xe8, 0xdc, 0x00, 0x1b, 0x13, 0x15, 0xd6, 0x1a, 0x00, 0x1a, 
	0xeb, 0xe5, 0x1e, 0xe7, 0x08, 0xee, 0xed, 0x17, 0x13, 0xe4, 0xe8, 0xe8, 
	0x09, 0xf4, 0x1a, 0x03, 0x09, 0x08, 0x1f, 0x1b, 0xf2, 0xe8, 0x21, 0x1e, 
	0xe2, 0xed, 0xef, 0x12, 0xef, 0x15, 0xfe, 0x14, 0xfa, 0xda, 0xf9, 0xdd, 
	0xed, 0x08, 0xd9, 0x08, 0xe8, 0xf0, 0xea, 0xef, 0x0c, 0xe0, 0xd8, 0x23, 
	0x06, 0x04, 0x16, 0x0e, 0xe1, 0xeb, 0xeb, 0x23, 0xf3, 0x1e, 0xda, 0x0a, 
	0x19, 0x09, 0x01, 0xdf, 0xfc, 0xf4, 0xe4, 0xe8, 0x1b, 0xfd, 0xe5, 0x12, 
	0xfb, 0x0a, 0x04, 0xd6, 0xed, 0xef, 0x28, 0xe8, 0x1e, 0x07, 0xf1, 0xfb, 
	0x11, 0x0c, 0xf2, 0x0b, 0x0f, 0x17, 0x17, 0x17, 0x15, 0xf6, 0x06, 0x39, 
	0x22, 0xef, 0xed, 0xe2, 0xeb, 0x12, 0xde, 0xda, 0x21, 0x00, 0x02, 0x24, 
	0xff, 0xee, 0xf3, 0xf6, 0x17, 0x03, 0x12, 0x1d, 0x16, 0x1e, 0x19, 0x12, 
	0xdf, 0x22, 0xf7, 0x1a, 0xf3, 0x02, 0xf1, 0x0c, 0xe1, 0x05, 0x26, 0xdf, 
	0xde, 0x0a, 0x1e, 0xea, 0xf0, 0xe9, 0x0f, 0xf8, 0xd9, 0x08, 0x0e, 0xf1, 
	0xfe, 0xf5, 0x0c, 0x06, 0x05, 0xf0, 0x21, 0x16, 0xe1, 0xfd, 0x0f, 0xfd, 
	0xe5, 0x15, 0x04, 0xf2, 0xe0, 0xdf, 0xde, 0xec, 0x02, 0x1d, 0xe0, 0xf0, 
	0x03, 0xfa, 0xea, 0x0b, 0x05, 0xed, 0x05, 0x1d, 0x20, 0x00, 0xec, 0xe5, 
	0x1a, 0xdf, 0xf3, 0x10, 0x12, 0xed, 0xe6, 0xe3, 0x22, 0xf8, 0x15, 0x11, 
	0xed, 0x11, 0x19, 0x07, 0x02, 0x02, 0xe7, 0x08, 0x20, 0xdb, 0x1c, 0xf6, 
	0x21, 0x27, 0x12, 0xf2, 0x10, 0xda, 0xe8, 0xec, 0x04, 0xd2, 0x01, 0x17, 
	0xdb, 0xfe, 0xfd, 0xdc, 0x16, 0xf8, 0x1e, 0x06, 0xfb, 0xf8, 0x24, 0xe9, 
	0xf3, 0xed, 0xf0, 0xf0, 0xfb, 0x27, 0x01, 0xf0, 0xfe, 0xf7, 0x03, 0x23, 
	0xda, 0xf9, 0x21, 0xda, 0x0d, 0xff, 0xeb, 0x15, 0x12, 0x14, 0x1e, 0xef, 
	0x22, 0x03, 0x02, 0xdb, 0x12, 0xda, 0xf5, 0x00, 0xec, 0x12, 0x2b, 0xea, 
	0x0a, 0x03, 0x0a, 0xeb, 0xeb, 0xff, 0x02, 0xfc, 0xee, 0xe5, 0x07, 0x0b, 
	0x0b, 0x0f, 0xf2, 0x1d, 0x07, 0xf3, 0x14, 0x25, 0xe3, 0xfa, 0x13, 0xf2, 
	0xfb, 0xf2, 0xfd, 0x0f, 0xfe, 0x08, 0x12, 0x0f, 0x02, 0x26, 0xf2, 0xf1, 
	0xee, 0x16, 0x07, 0x05, 0xf8, 0xde, 0xf8, 0x01, 0xfe, 0x08, 0xe7, 0xfb, 
	0xe5, 0x08, 0xf4, 0xee, 0xf5, 0x1a, 0x10, 0x08, 0x27, 0x1c, 0x10, 0x13, 
	0xe2, 0x05, 0xeb, 0xe8, 0xfa, 0x0c, 0x1c, 0x19, 0xf9, 0x19, 0xe0, 0xf3, 
	0x18, 0xff, 0xe0, 0xf9, 0x15, 0x15, 0xe3, 0xff, 0xe1, 0x09, 0x0a, 0xf5, 
	0x0c, 0x17, 0xf9, 0x16, 0x1f, 0x09, 0xdc, 0xfb, 0xdc, 0xf7, 0xf6, 0xdb, 
	0xf4, 0xe2, 0x07, 0xe4, 0xfb, 0x24, 0x1d, 0xe4, 0x20, 0xe4, 0x1a, 0xf3, 
	0x13, 0xfc, 0x26, 0xfe, 0x09, 0xec, 0x0b, 0xed, 0xe4, 0xea, 0xff, 0x1a, 
	0xdd, 0x03, 0xdd, 0x1e, 0x04, 0x13, 0x04, 0xf9, 0xf7, 0x08, 0xea, 0x1a, 
	0xf3, 0xf9, 0xd9, 0xff, 0xe1, 0xdc, 0x10, 0xff, 0xfb, 0x05, 0x0c, 0xf4, 
	0xe2, 0xec, 0xe8, 0xfd, 0xf9, 0x00, 0x19, 0xdd, 0xfe, 0x1f, 0x01, 0x01, 
	0xec, 0x0f, 0x04, 0x22, 0x07, 0x09, 0xf5, 0x1c, 0x06, 0xef, 0x0a, 0x04, 
	0xec, 0x12, 0xf3, 0xf0, 0x0a, 0xe8, 0x00, 0x11, 0x17, 0x08, 0x00, 0xff, 
	0x03, 0xf2, 0xfe, 0x26, 0x12, 0x00, 0x14, 0xf6, 0xf4, 0x06, 0x02, 0x03, 
	0x18, 0x22, 0x1c, 0x00, 0x08, 0x11, 0xe4, 0xc8, 0xff, 0x11, 0xfb, 0xe9, 
	0xfe, 0xf7, 0x0c, 0xe3, 0xec, 0xf3, 0xde, 0x1d, 0xfd, 0xd9, 0xdd, 0x48, 
	0x1c, 0x25, 0xe2, 0x14, 0x16, 0xf5, 0xf6, 0x19, 0xf6, 0xdd, 0xf0, 0xdb, 
	0x02, 0x0b, 0xff, 0x10, 0xfb, 0xff, 0xfc, 0xe8, 0xed, 0x06, 0xf9, 0x1e, 
	0x1a, 0xeb, 0xee, 0x1c, 0x08, 0xea, 0xf8, 0x05, 0x00, 0x01, 0x1e, 0x1e, 
	0xee, 0xe6, 0xde, 0x04, 0x04, 0x1d, 0x01, 0xfc, 0xd8, 0x12, 0xdb, 0x06, 
	0x17, 0xe9, 0xe5, 0xeb, 0x05, 0xe7, 0x1a, 0x21, 0xdb, 0x18, 0x16, 0xfc, 
	0xe2, 0xf4, 0xdc, 0xea, 0x20, 0x1e, 0x21, 0x11, 0x1b, 0xfa, 0xfd, 0xfe, 
	0x04, 0x19, 0x0b, 0x0f, 0x2a, 0x1d, 0x15, 0xf4, 0xf8, 0xe0, 0x23, 0xe0, 
	0x20, 0xea, 0xe9, 0x1e, 0x02, 0x01, 0xe9, 0xe2, 0xf1, 0xf1, 0x06, 0x1b, 
	0x11, 0x0f, 0xe6, 0xed, 0x0e, 0xef, 0x11, 0xe9, 0xea, 0xf7, 0x05, 0xe4, 
	0xdc, 0xf7, 0xee, 0xf3, 0x15, 0x23, 0x0e, 0x14, 0xe7, 0x08, 0xf3, 0x15, 
	0xfe, 0x01, 0x1e, 0xff, 0xe7, 0x24, 0xe1, 0xf9, 0xf6, 0x1f, 0x05, 0xf8, 
	0x1a, 0xe9, 0xf6, 0xdd, 0xe1, 0xe6, 0x1c, 0x19, 0xfc, 0x22, 0x08, 0xf0, 
	0xf7, 0x0c, 0x07, 0xe4, 0xe6, 0x18, 0xf7, 0xea, 0xeb, 0x0c, 0x17, 0x05, 
	0x0c, 0x14, 0x1b, 0xf3, 0xe2, 0xfe, 0x06, 0xe8, 0xf8, 0x2b, 0xe8, 0xda, 
	0x0e, 0xe9, 0xf5, 0x21, 0xe6, 0xdd, 0x16, 0x22, 0xea, 0xfb, 0x1b, 0xed, 
	0xeb, 0x03, 0xee, 0xe0, 0x24, 0xec, 0x1a, 0x02, 0x08, 0x05, 0xd9, 0xdb, 
	0xeb, 0x13, 0xfa, 0xf2, 0x02, 0xdc, 0x02, 0xf7, 0x1b, 0xed, 0x18, 0xf0, 
	0x1c, 0x1f, 0x1e, 0xfb, 0x20, 0x1f, 0x1b, 0xfe, 0x04, 0x0a, 0x0e, 0xfc, 
	0x23, 0xe4, 0x23, 0xf5, 0xe5, 0x22, 0xe8, 0xeb, 0x26, 0xea, 0xe0, 0x17, 
	0x04, 0x1a, 0x1a, 0x01, 0xf5, 0x01, 0xdd, 0x13, 0x0b, 0xdb, 0xf9, 0x1e, 
	0xf2, 0x14, 0xfc, 0xfb, 0xed, 0xd9, 0x23, 0x0c, 0xe9, 0x07, 0xe1, 0xe1, 
	0x23, 0xf5, 0x11, 0x1c, 0xf8, 0x20, 0x22, 0xee, 0x27, 0xe2, 0xeb, 0xe6, 
	0x0f, 0x05, 0xe5, 0x00, 0x10, 0x1e, 0xec, 0x10, 0xe1, 0xee, 0x09, 0xf8, 
	0x21, 0xdd, 0x1f, 0xfa, 0xfa, 0x0c, 0x28, 0xf0, 0xf2, 0xfd, 0x02, 0x23, 
	0xe9, 0x21, 0x16, 0x1e, 0x0f, 0xd7, 0xf6, 0x02, 0x17, 0x17, 0xdf, 0xdf, 
	0xfc, 0xf8, 0xe1, 0xe9, 0x17, 0x10, 0xf7, 0xf6, 0xef, 0xdb, 0x09, 0xf2, 
	0x06, 0x21, 0xdd, 0x0e, 0xfd, 0xe1, 0x0d, 0x1c, 0xfc, 0xe7, 0xdf, 0xf9, 
	0xfd, 0x20, 0x1f, 0xdd, 0x03, 0xf2, 0x00, 0x22, 0x1f, 0xf9, 0x01, 0x16, 
	0x21, 0xe9, 0xeb, 0x0a, 0x07, 0x0a, 0xf6, 0x1d, 0x13, 0xe9, 0x09, 0x1b, 
	0xea, 0xf1, 0x27, 0x09, 0xdc, 0xdc, 0xf0, 0x28, 0x0b, 0x0c, 0xee, 0x11, 
	0x19, 0xfc, 0xdb, 0xf9, 0xdd, 0xfb, 0x23, 0xee, 0xee, 0xef, 0xef, 0xe0, 
	0x05, 0x19, 0x0e, 0xe1, 0xf5, 0x21, 0x0c, 0x00, 0xed, 0x07, 0xfb, 0x81, 
	0xef, 0xe8, 0xf4, 0x0e, 0xff, 0xee, 0x1a, 0xe4, 0xe0, 0x0c, 0x28, 0xfe, 
	0x18, 0x14, 0xe5, 0xec, 0x09, 0xdd, 0x14, 0xe8, 0x26, 0x1c, 0x28, 0x12, 
	0xe1, 0xfa, 0x03, 0x0a, 0x1f, 0xf1, 0x1c, 0x1f, 0xdd, 0xe8, 0x16, 0x36, 
	0x1c, 0x30, 0x08, 0x1d, 0x2a, 0x01, 0x23, 0x0c, 0xdf, 0xf8, 0x05, 0xfa, 
	0x31, 0x14, 0x3f, 0x1a, 0xde, 0x1c, 0x17, 0xe2, 0x06, 0xe5, 0xfd, 0xf5, 
	0x1d, 0x08, 0xe5, 0xfe, 0x11, 0xf6, 0xdb, 0xd8, 0xeb, 0xf8, 0x09, 0x24, 
	0x04, 0x1e, 0x0d, 0x1d, 0xee, 0xe1, 0x1a, 0xff, 0xdb, 0x14, 0x03, 0xff, 
	0x11, 0x22, 0xfb, 0xf4, 0xe8, 0x19, 0x05, 0x16, 0x06, 0xed, 0xf3, 0x13, 
	0xef, 0xee, 0xec, 0xe4, 0xdb, 0xf7, 0xe3, 0xf3, 0x26, 0xf1, 0x0b, 0xde, 
	0x16, 0xf9, 0xfb, 0x09, 0xda, 0xf7, 0xe8, 0x20, 0x11, 0x25, 0xf2, 0xf2, 
	0xdf, 0xda, 0x23, 0xde, 0xee, 0x1b, 0x18, 0x04, 0x14, 0x04, 0x0b, 0xfb, 
	0x05, 0x1a, 0x06, 0xdb, 0xe4, 0x1c, 0xe9, 0xff, 0xfb, 0xfd, 0x09, 0xf6, 
	0x08, 0x23, 0xd9, 0xea, 0x25, 0x20, 0xde, 0x16, 0x3a, 0xf6, 0xff, 0xff, 
	0x04, 0x00, 0x00, 0x00, 0x00, 0x08, 0x00, 0x00, 0xb5, 0x5a, 0x1f, 0x3e, 
	0x94, 0x82, 0x7a, 0x3e, 0xb6, 0xe9, 0xaf, 0xbd, 0x15, 0x9c, 0x82, 0x3e, 
	0xf3, 0x09, 0x3f, 0xbd, 0x1d, 0x78, 0x99, 0xbd, 0xf8, 0x5d, 0xc0, 0x3d, 
	0xc9, 0xd7, 0x93, 0xbd, 0x1a, 0x46, 0x9e, 0xbd, 0x76, 0xd9, 0xfa, 0x3d, 
	0x3f, 0x23, 0x17, 0x3e, 0x40, 0xc6, 0x08, 0x3e, 0xdb, 0xc2, 0x12, 0xbd, 
	0x4f, 0x4e, 0x82, 0x3e, 0x19, 0xde, 0x6b, 0x3e, 0x56, 0x3e, 0xbe, 0xbc, 
	0x01, 0x4d, 0xde, 0xbd, 0x27, 0x32, 0x46, 0x3e, 0xc9, 0xf0, 0x62, 0x3e, 
	0x8e, 0x8a, 0xa7, 0x3e, 0xeb, 0x48, 0x07, 0xbe, 0xf7, 0x90, 0x8d, 0xbe, 
	0xed, 0x4a, 0x32, 0xbe, 0x14, 0x59, 0x42, 0xbe, 0x04, 0xc8, 0x27, 0x3e, 
	0x8e, 0x16, 0x3a, 0x3e, 0x72, 0xac, 0x5a, 0x3c, 0xea, 0xba, 0x97, 0xbe, 
	0x53, 0x18, 0x01, 0xbd, 0xb8, 0x5b, 0x4a, 0x3e, 0x85, 0xc5, 0x22, 0xbe, 
	0x68, 0x2b, 0xa3, 0x3d, 0xf9, 0xa9, 0x4a, 0xbc, 0x02, 0xf2, 0x8f, 0xbd, 
	0xb1, 0x3e, 0x00, 0x3e, 0x09, 0xae, 0x48, 0x3e, 0xbc, 0xcf, 0x8f, 0x3d, 
	0xa4, 0x30, 0xc0, 0x3d, 0xa3, 0xaf, 0x1b, 0xbe, 0x6c, 0xdc, 0x80, 0x3e, 
	0x0c, 0x90, 0x44, 0xbe, 0x2c, 0x54, 0x99, 0xbd, 0x48, 0xf0, 0x89, 0xbe, 
	0x33, 0xea, 0x4e, 0x3e, 0xf5, 0x99, 0x7b, 0xbe, 0x25, 0x78, 0xba, 0x3d, 
	0x1b, 0xfc, 0x34, 0x3e, 0xb5, 0xfa, 0xb0, 0xbd, 0x53, 0xc7, 0x44, 0xbd, 
	0xd3, 0xa0, 0x21, 0x3e, 0xf7, 0x3c, 0x63, 0x3e, 0x00, 0x47, 0x94, 0xbd, 
	0x13, 0x74, 0xd5, 0x3d, 0x43, 0x12, 0x36, 0x3e, 0x8f, 0x5b, 0x50, 0xbe, 
	0xd4, 0x60, 0xb5, 0x3d, 0xc2, 0xb6, 0xe4, 0x3d, 0x48, 0xea, 0xbb, 0xbd, 
	0x70, 0x5c, 0x0f, 0x3e, 0x17, 0xc7, 0x59, 0xbe, 0x16, 0x9e, 0x6d, 0xbe, 
	0xe8, 0x0c, 0x7c, 0x3e, 0xac, 0x3d, 0x25, 0xbe, 0xe0, 0x1c, 0x03, 0x3e, 
	0x98, 0x43, 0x0f, 0xbd, 0xc0, 0x1a, 0xfd, 0xbb, 0x81, 0xaa, 0x88, 0xbe, 
	0xbc, 0x6b, 0x72, 0xbd, 0x74, 0x12, 0xf5, 0xbd, 0x30, 0x47, 0x56, 0x3e, 
	0x40, 0x4a, 0x95, 0x3b, 0x34, 0xcb, 0x73, 0x3e, 0x90, 0x04, 0xd4, 0xbc, 
	0xf8, 0xb5, 0x29, 0x3d, 0xaa, 0xf1, 0xeb, 0xbd, 0x6e, 0x5b, 0x22, 0x3e, 
	0x36, 0x26, 0xc6, 0xbd, 0x72, 0x34, 0x85, 0xbe, 0x92, 0xee, 0x46, 0xbe, 
	0x90, 0x9e, 0x28, 0x3e, 0x2b, 0x00, 0x9b, 0xbd, 0x77, 0x84, 0x2a, 0xbd, 
	0x0d, 0x56, 0xb5, 0x3d, 0xa7, 0xe5, 0x5e, 0xbc, 0xbf, 0x2f, 0x97, 0x3d, 
	0x13, 0xfa, 0x99, 0xbd, 0xb3, 0xe1, 0xc8, 0xbd, 0x5d, 0x7b, 0x6a, 0x3e, 
	0x4b, 0xad, 0xe3, 0xbd, 0xf5, 0x4a, 0x22, 0xbd, 0x60, 0x19, 0x1a, 0x3e, 
	0xf8, 0xea, 0x71, 0x3e, 0xe0, 0x21, 0x95, 0x3e, 0xb7, 0x43, 0x76, 0xbe, 
	0x43, 0xb7, 0x89, 0xbc, 0x0f, 0x8b, 0x9a, 0xbd, 0x76, 0x2c, 0x52, 0xbe, 
	0x80, 0xd3, 0xf3, 0xbc, 0x41, 0x43, 0x27, 0xbe, 0x88, 0x8f, 0x82, 0xbd, 
	0x00, 0x10, 0xc2, 0x3a, 0x40, 0x56, 0xe5, 0x3b, 0x84, 0xb1, 0xb4, 0xbd, 
	0x10, 0x90, 0x40, 0x3e, 0x02, 0x48, 0x5b, 0x3e, 0x6e, 0xdf, 0x2c, 0xbe, 
	0x4e, 0x09, 0x30, 0x3e, 0x7f, 0x59, 0x48, 0x3e, 0x9e, 0x25, 0xdb, 0xbd, 
	0xef, 0xf0, 0xc7, 0xbd, 0xca, 0x7d, 0xb4, 0x3d, 0x7a, 0x7c, 0x2b, 0x3e, 
	0xb3, 0x5c, 0x39, 0xbe, 0xbc, 0xfc, 0x60, 0x3e, 0x70, 0x57, 0xb5, 0x3c, 
	0xf6, 0x0c, 0x22, 0xbe, 0x55, 0xbb, 0x76, 0xbe, 0x89, 0x2f, 0xae, 0x3d, 
	0xf8, 0xc5, 0x70, 0xbe, 0x06, 0x3b, 0xe7, 0xbd, 0xe0, 0xdf, 0x93, 0x3c, 
	0x12, 0xce, 0x27, 0x3e, 0xba, 0x2d, 0x3a, 0x3e, 0xd8, 0x52, 0xe5, 0x3c, 
	0x7f, 0xc7, 0x2b, 0x3e, 0xbb, 0xfb, 0x85, 0x3e, 0xda, 0x02, 0x93, 0x3e, 
	0xdd, 0x9d, 0x27, 0xbe, 0xee, 0xf5, 0xd0, 0xbd, 0x50, 0x2d, 0x86, 0xbe, 
	0xd0, 0xb8, 0x19, 0x3e, 0xc4, 0x9d, 0x89, 0x3e, 0xd3, 0x02, 0x66, 0xbe, 
	0x65, 0x67, 0x91, 0x3d, 0xc2, 0xc1, 0x56, 0x3e, 0xa0, 0x13, 0x3a, 0xbe, 
	0x07, 0x54, 0x1f, 0xbe, 0x3e, 0x8f, 0xdd, 0x3d, 0xb7, 0xd7, 0x33, 0xbe, 
	0xa7, 0x96, 0x66, 0xbe, 0x14, 0xb7, 0x7e, 0xbb, 0x4a, 0xef, 0x02, 0xbe, 
	0x7c, 0xe9, 0x28, 0x3e, 0xfa, 0x90, 0x4f, 0x3d, 0x19, 0x67, 0x96, 0x3e, 
	0xad, 0x4c, 0xda, 0xbd, 0xdd, 0xd8, 0xa7, 0xbe, 0x1e, 0x25, 0x48, 0xbe, 
	0xd0, 0x19, 0x68, 0xbe, 0xe4, 0xfb, 0x1e, 0x3e, 0x37, 0x4a, 0x4f, 0xbe, 
	0x54, 0xf9, 0x89, 0x3e, 0xa9, 0xce, 0x04, 0xbe, 0x09, 0xcf, 0x05, 0xbe, 
	0x7e, 0xba, 0x05, 0x3e, 0x34, 0xe2, 0xb1, 0xbd, 0xfc, 0xe3, 0x0c, 0x3d, 
	0x84, 0xca, 0x84, 0xbe, 0x38, 0x10, 0x67, 0xbe, 0xc9, 0xc8, 0xcc, 0xbd, 
	0xfe, 0x9f, 0x00, 0xbe, 0x44, 0x60, 0x5c, 0xbe, 0x59, 0x05, 0x2a, 0x3e, 
	0x1e, 0x37, 0x21, 0x3e, 0xac, 0x1d, 0x25, 0xbd, 0xbd, 0x62, 0x60, 0xbe, 
	0x5c, 0xb2, 0x8e, 0x3e, 0xa3, 0x70, 0x2b, 0x3e, 0x41, 0x55, 0x4f, 0xbe, 
	0xe2, 0xba, 0xcf, 0xbb, 0xdd, 0x5a, 0x6b, 0x3e, 0x42, 0x62, 0x89, 0xbc, 
	0xe1, 0xf5, 0x24, 0xbe, 0xff, 0x2a, 0xec, 0x3c, 0x01, 0xd6, 0x1d, 0x3e, 
	0xfa, 0x69, 0xc7, 0xbc, 0xad, 0x7c, 0x3a, 0x3e, 0xd2, 0xb7, 0x74, 0x3e, 
	0xaa, 0xa0, 0x65, 0x3e, 0x71, 0xac, 0x0b, 0x3e, 0x33, 0xc9, 0x64, 0x3c, 
	0x1e, 0x00, 0x02, 0xbe, 0x66, 0xfa, 0x8e, 0xbd, 0x1d, 0x53, 0x81, 0xbe, 
	0xb7, 0x16, 0xf9, 0x3d, 0x08, 0xab, 0x48, 0xbe, 0x97, 0x1f, 0xc0, 0x3d, 
	0xdc, 0xab, 0x31, 0x3d, 0x2e, 0x8c, 0x4e, 0x3e, 0x7e, 0x8c, 0x4e, 0xbe, 
	0x80, 0x5f, 0x8a, 0xbe, 0xbf, 0xac, 0x13, 0x3d, 0x8e, 0x14, 0x7a, 0x3e, 
	0x4c, 0x27, 0x17, 0xbe, 0xfb, 0x0d, 0x65, 0xbe, 0xa6, 0xe4, 0x1f, 0x3e, 
	0x9c, 0xfc, 0x91, 0xbd, 0x5e, 0xc6, 0x49, 0x3e, 0x34, 0xfa, 0x61, 0x3e, 
	0x12, 0xdc, 0xcd, 0xbd, 0xaa, 0x68, 0x08, 0xbe, 0x06, 0xbb, 0x82, 0x3d, 
	0xbf, 0x7f, 0x04, 0xbd, 0xf9, 0x09, 0x34, 0xbc, 0x76, 0xca, 0x62, 0xbe, 
	0xb2, 0xc7, 0x89, 0x3e, 0x27, 0x00, 0x6f, 0x3e, 0x92, 0x6e, 0xb4, 0x3d, 
	0xdf, 0x83, 0x44, 0x3c, 0x5e, 0x4d, 0x0e, 0x3d, 0x52, 0xe1, 0xfc, 0x3c, 
	0x58, 0xfe, 0x0a, 0x3e, 0x77, 0x98, 0xec, 0xbd, 0x8b, 0xcf, 0x81, 0x3e, 
	0x6f, 0x5d, 0x4b, 0xbe, 0x8c, 0x44, 0xad, 0x3d, 0x25, 0x8b, 0x80, 0x3e, 
	0x13, 0xf2, 0x11, 0xbd, 0xe2, 0xc9, 0x6f, 0xbe, 0x48, 0x3d, 0x0c, 0xbd, 
	0x05, 0x33, 0x0c, 0x3e, 0x43, 0x30, 0x62, 0x3e, 0x31, 0x2c, 0x4c, 0x3e, 
	0xb0, 0x35, 0x98, 0x3e, 0xe2, 0x7f, 0x55, 0xbe, 0x11, 0xee, 0x92, 0x3d, 
	0xcc, 0x25, 0x5f, 0x3e, 0x42, 0x8d, 0x72, 0xbd, 0xf0, 0x01, 0x50, 0x3e, 
	0x0f, 0x2a, 0x50, 0x3e, 0xb8, 0x7d, 0x7f, 0x3e, 0x72, 0x43, 0x81, 0xbe, 
	0x65, 0x05, 0x33, 0xbe, 0x48, 0x97, 0x9b, 0x3e, 0xd5, 0xbe, 0x72, 0xbd, 
	0x54, 0xa2, 0xdc, 0x3d, 0xfa, 0x30, 0x2c, 0xbe, 0xe3, 0xc0, 0x65, 0xbd, 
	0x60, 0xb1, 0x98, 0x3e, 0x57, 0x8a, 0x99, 0xba, 0x66, 0x53, 0x71, 0xbe, 
	0x52, 0x1c, 0x90, 0xbd, 0x5f, 0x1d, 0x89, 0xbe, 0x30, 0xf7, 0x19, 0xbd, 
	0xf6, 0x00, 0x1d, 0x3e, 0x94, 0xdc, 0x83, 0xbe, 0x32, 0x8b, 0x8c, 0xbe, 
	0x46, 0x96, 0xf9, 0xbd, 0x9c, 0xd8, 0x18, 0x3e, 0x27, 0xa7, 0x1a, 0x3d, 
	0xa4, 0xbf, 0x58, 0x3e, 0xd8, 0xed, 0xee, 0xbd, 0x9b, 0x93, 0x77, 0xbd, 
	0xb7, 0x0d, 0x74, 0xbe, 0x01, 0x09, 0x9f, 0x3d, 0x53, 0xed, 0xc0, 0xbd, 
	0x91, 0x0e, 0x2b, 0x3e, 0xb8, 0xdd, 0x25, 0xbe, 0x42, 0x8b, 0x0c, 0x3e, 
	0x26, 0x9a, 0xec, 0xbd, 0x6c, 0x60, 0x8f, 0x3e, 0x18, 0x6c, 0x35, 0x3d, 
	0xe8, 0x4e, 0xdd, 0xbd, 0xf7, 0x82, 0x74, 0xbe, 0x8c, 0x14, 0x66, 0x3e, 
	0x5b, 0x4b, 0xa3, 0x3d, 0xf5, 0x76, 0x99, 0xbd, 0xe9, 0xb5, 0xce, 0x3a, 
	0x6b, 0xd4, 0xf8, 0x3c, 0x80, 0xe9, 0x5b, 0x3e, 0x07, 0x2c, 0xa4, 0x3d, 
	0x1e, 0x56, 0x85, 0x3d, 0x14, 0xf6, 0x6f, 0xbe, 0xe7, 0x82, 0x9b, 0x3d, 
	0x9f, 0x58, 0x74, 0x3c, 0x44, 0xa6, 0xbf, 0xbd, 0x6e, 0x38, 0x86, 0xbe, 
	0x9f, 0x61, 0xc1, 0x3d, 0x33, 0xe2, 0x49, 0xbe, 0xbf, 0x94, 0xcc, 0xbd, 
	0xa7, 0x93, 0x12, 0x3e, 0x31, 0x3a, 0x81, 0x3e, 0x7b, 0xd6, 0x5c, 0x3e, 
	0x7d, 0x8a, 0xf6, 0xbd, 0xcb, 0x0e, 0x33, 0xbe, 0xe9, 0xc6, 0x8c, 0xbe, 
	0x3d, 0xc7, 0x17, 0x3e, 0x15, 0xde, 0x08, 0x3e, 0xa6, 0x84, 0xc8, 0xbd, 
	0x2a, 0xa5, 0x59, 0xbe, 0xc7, 0x42, 0x27, 0x3d, 0x71, 0x3d, 0xa1, 0xbd, 
	0x3f, 0x98, 0xa5, 0x3d, 0x43, 0xae, 0xaa, 0xbc, 0xc0, 0xe6, 0xcd, 0xbd, 
	0xcb, 0x68, 0xad, 0x3c, 0xa6, 0xdf, 0xab, 0xbd, 0x50, 0x87, 0x29, 0xbe, 
	0x12, 0xf2, 0x79, 0xbe, 0xce, 0x30, 0x4c, 0xbe, 0xe0, 0xa7, 0x8c, 0x3c, 
	0x58, 0x5c, 0xfe, 0x3d, 0x0c, 0xe8, 0x5b, 0xbd, 0x9e, 0xaf, 0x14, 0x3e, 
	0x95, 0x8b, 0x2a, 0x3e, 0xf4, 0x94, 0x89, 0x3e, 0xe2, 0xbc, 0x4f, 0x3e, 
	0x6a, 0x3d, 0x79, 0x3d, 0x8d, 0x0d, 0x96, 0xbe, 0xdf, 0xfa, 0x71, 0xbe, 
	0xf1, 0xec, 0x80, 0x3e, 0xb7, 0x1f, 0x1c, 0xbd, 0x17, 0x43, 0x00, 0xbe, 
	0xc4, 0xc1, 0x85, 0x3d, 0x95, 0x6f, 0xe4, 0xbc, 0x2f, 0x38, 0x23, 0x3f, 
	0x7b, 0x6b, 0x3e, 0x3f, 0xa9, 0xf1, 0xa3, 0x3e, 0xfc, 0x44, 0x5a, 0xbe, 
	0x88, 0xa7, 0x89, 0xbb, 0xad, 0x27, 0x4d, 0xbe, 0x40, 0xd6, 0x2f, 0xbe, 
	0x74, 0xad, 0x75, 0xbe, 0xd6, 0x5b, 0x90, 0x3e, 0x70, 0xa0, 0x09, 0xbe, 
	0x60, 0x5a, 0x39, 0x3c, 0x9c, 0xba, 0x30, 0x3e, 0x5c, 0xb4, 0x47, 0xbd, 
	0x67, 0x9d, 0x8a, 0xbe, 0x69, 0x59, 0x42, 0x3e, 0xb1, 0x8f, 0xaa, 0xbd, 
	0xfa, 0x69, 0x85, 0x3d, 0xd4, 0xd0, 0xa6, 0xbe, 0x13, 0x17, 0xac, 0xbe, 
	0xf5, 0xe9, 0x96, 0xbd, 0x6a, 0xc2, 0x91, 0xbe, 0x4b, 0x9d, 0xf9, 0x3d, 
	0x3b, 0xe7, 0x80, 0x3c, 0x48, 0x47, 0xb4, 0xbd, 0xd4, 0xa9, 0x4a, 0xbe, 
	0x41, 0x5d, 0x46, 0xbd, 0x71, 0x31, 0xe1, 0xbc, 0x57, 0xe8, 0x14, 0xbe, 
	0x6f, 0x6a, 0x52, 0x3e, 0xa1, 0x53, 0x63, 0x3e, 0x87, 0x5a, 0x45, 0x3d, 
	0x11, 0x49, 0xde, 0xbd, 0x6d, 0x23, 0x78, 0x3e, 0xb3, 0x5a, 0xe5, 0x3d, 
	0xe2, 0xb5, 0x18, 0x3e, 0x74, 0xbe, 0x38, 0x3d, 0xa9, 0xf5, 0xe2, 0x3d, 
	0xa6, 0x30, 0x60, 0x3e, 0x4d, 0x66, 0x53, 0x3e, 0x62, 0x16, 0x86, 0xbe, 
	0xb0, 0x7c, 0xb0, 0xbc, 0xb6, 0xa3, 0x8d, 0xbe, 0xad, 0x11, 0x92, 0x3e, 
	0xca, 0xf0, 0x1f, 0xbe, 0xaf, 0xa8, 0xc5, 0xbd, 0x73, 0xa3, 0x32, 0xbd, 
	0xbc, 0xf0, 0x1f, 0x3e, 0xdf, 0x6c, 0xa5, 0x3c, 0x41, 0x40, 0x90, 0x3e, 
	0xad, 0x18, 0xcc, 0x3d, 0xf4, 0x9c, 0x0b, 0x3d, 0xc0, 0x27, 0x4e, 0xbc, 
	0x4c, 0xa7, 0x96, 0xbd, 0x1a, 0xee, 0x3f, 0xbe, 0x64, 0xd3, 0x6c, 0x3e, 
	0xe0, 0xdf, 0x01, 0xbe, 0x23, 0x40, 0x92, 0x3e, 0x44, 0x6e, 0x04, 0xbe, 
	0x8a, 0x2c, 0xdd, 0xbc, 0x09, 0x6c, 0x61, 0x3e, 0x79, 0x6e, 0xe5, 0x3d, 
	0x3a, 0x7a, 0x40, 0xbe, 0x1b, 0x4b, 0x1e, 0xbc, 0x41, 0xe9, 0x36, 0xbb, 
	0xce, 0x28, 0x46, 0xbe, 0xc3, 0x9c, 0xa3, 0xbd, 0x78, 0x7a, 0x61, 0x3b, 
	0xcf, 0x2d, 0x23, 0x3e, 0x26, 0x99, 0x28, 0x3e, 0x3b, 0xd4, 0x3d, 0x3d, 
	0xd0, 0xf3, 0x82, 0x3e, 0x04, 0xda, 0x9b, 0xbd, 0x06, 0x34, 0xe1, 0x3d, 
	0xdc, 0x35, 0xf9, 0x3d, 0x98, 0x38, 0x57, 0x3e, 0x0f, 0x1e, 0xc7, 0x3d, 
	0x9f, 0xa7, 0x9a, 0xbd, 0x81, 0x0f, 0x90, 0xbe, 0x2e, 0xc4, 0x47, 0x3c, 
	0xd7, 0x0b, 0x87, 0xbd, 0x60, 0xee, 0xfe, 0x3d, 0x14, 0xec, 0x6d, 0x3e, 
	0x98, 0xc0, 0x62, 0x3e, 0xa6, 0x13, 0xf6, 0x3d, 0xc4, 0x00, 0xbf, 0x3d, 
	0x1e, 0x5f, 0xe4, 0xbd, 0xe4, 0xbd, 0x80, 0x3e, 0x2d, 0xc4, 0xf3, 0x3d, 
	0x14, 0xbd, 0x33, 0x3d, 0xe9, 0x71, 0xa4, 0x3d, 0x3d, 0xbb, 0x32, 0xbe, 
	0x67, 0x03, 0x40, 0xbe, 0xac, 0x0e, 0x19, 0xbd, 0x3e, 0x03, 0xc8, 0xbd, 
	0xbe, 0x0d, 0xa5, 0xbd, 0xae, 0x5d, 0xb9, 0xbd, 0x5b, 0x96, 0x25, 0xbe, 
	0xec, 0x7f, 0xbd, 0x3d, 0xd6, 0x34, 0x80, 0xbe, 0x10, 0xf4, 0x80, 0x3d, 
	0x00, 0x0d, 0x3e, 0x3e, 0x09, 0xe5, 0x6f, 0x3e, 0x52, 0x98, 0x1c, 0x3e, 
	0x1b, 0x63, 0x81, 0xbe, 0x5c, 0x75, 0x2b, 0x3e, 0x83, 0x30, 0x88, 0xbe, 
	0x35, 0x58, 0x7d, 0xbe, 0x39, 0x85, 0xe8, 0xbd, 0xa8, 0x39, 0x80, 0xbd, 
	0x55, 0xd5, 0x17, 0x3e, 0x83, 0x19, 0x05, 0x3e, 0x88, 0x3f, 0x54, 0x3e, 
	0x8a, 0xf6, 0x43, 0x3d, 0x77, 0xa6, 0x60, 0x3e, 0x3c, 0x50, 0x86, 0xbe, 
	0xd1, 0x21, 0x71, 0x3c, 0x9d, 0x5f, 0xfb, 0x3d, 0x9f, 0xe5, 0x58, 0xbe, 
	0x5b, 0xa9, 0x30, 0x3e, 0x16, 0x45, 0xb9, 0x3d, 0x4b, 0xb1, 0x82, 0x3e, 
	0xc8, 0x79, 0x9e, 0x3e, 0x40, 0x51, 0x5a, 0xbe, 0x59, 0x79, 0xb1, 0x3d, 
	0x87, 0xb7, 0x51, 0x3d, 0xe9, 0x87, 0x81, 0x3e, 0x3f, 0x9b, 0x43, 0x3d, 
	0xc1, 0xaf, 0x49, 0x3e, 0xb9, 0x4c, 0x89, 0x3d, 0xfd, 0x55, 0xa9, 0x3d, 
	0x42, 0x35, 0x4a, 0xbe, 0xa6, 0x0a, 0x1a, 0x3a, 0x36, 0x02, 0xd0, 0xbd, 
	0x47, 0x9d, 0x82, 0x3e, 0x34, 0x15, 0xc5, 0xbd, 0x3e, 0xc7, 0x1e, 0x3d, 
	0x4c, 0xec, 0xad, 0x3c, 0x39, 0x92, 0x91, 0xbe, 0x62, 0x25, 0x96, 0xbc, 
	0xa9, 0x0e, 0x83, 0x3e, 0xfa, 0x27, 0x23, 0x3d, 0x56, 0x37, 0xf3, 0xbd, 
	0xf8, 0x7a, 0x78, 0x3d, 0x01, 0x93, 0xd2, 0x3d, 0xa9, 0x91, 0x9d, 0x3d, 
	0xd2, 0x04, 0xa5, 0xbe, 0xac, 0x02, 0x3d, 0x3d, 0x4b, 0xa2, 0x0b, 0x3e, 
	0xf2, 0xb6, 0x6a, 0x3e, 0x8a, 0x71, 0x70, 0xbe, 0x84, 0xd2, 0x45, 0xbd, 
	0x64, 0x65, 0xa7, 0xbd, 0x55, 0xf5, 0x13, 0x3e, 0xd5, 0x88, 0xb8, 0xbc, 
	0xcb, 0x0c, 0x8d, 0x3e, 0x69, 0xe4, 0x7a, 0x3e, 0xed, 0x3c, 0x46, 0xbe, 
	0x20, 0x0e, 0x35, 0x3e, 0x85, 0x16, 0x74, 0xbe, 0x88, 0x72, 0xd7, 0x3b, 
	0x15, 0x72, 0x89, 0x3e, 0xc6, 0x98, 0x8b, 0x3e, 0x5c, 0x87, 0x01, 0x3e, 
	0xa6, 0x55, 0x8f, 0xbe, 0xbc, 0x21, 0x12, 0xbe, 0xf9, 0xbd, 0xf7, 0x3d, 
	0xbd, 0xce, 0x13, 0xbc, 0xbf, 0x2d, 0x39, 0xbe, 0x22, 0x07, 0x61, 0xbc, 
	0xcf, 0xf1, 0x62, 0xbe, 0x7b, 0xac, 0x8f, 0xbd, 0x14, 0xbb, 0x30, 0x3e, 
	0x37, 0x90, 0x23, 0x3e, 0xd0, 0xb9, 0xc4, 0x3d, 0xdc, 0x6f, 0xee, 0xbd, 
	0x15, 0x18, 0x9a, 0xbe, 0x11, 0xd1, 0x51, 0x3d, 0x9e, 0xfe, 0x7a, 0xbe, 
	0xaa, 0x68, 0x4a, 0x3e, 0x02, 0x3d, 0xb6, 0x3d, 0x1d, 0xf2, 0x56, 0xbc, 
	0xe8, 0xdc, 0xdf, 0xbd, 0x71, 0x81, 0x59, 0x3e, 0x5b, 0xaf, 0x6e, 0x3e, 
	0xa5, 0xc3, 0xb6, 0xbd, 0xd7, 0x18, 0x9b, 0xbe, 0x59, 0xb1, 0x24, 0x3e, 
	0x10, 0xd1, 0x3b, 0xbd, 0x30, 0x96, 0x65, 0x3e, 0x95, 0x8c, 0xa4, 0xbd, 
	0xad, 0x0f, 0x37, 0xbe, 0x44, 0xee, 0x4d, 0x3e, 0x95, 0x72, 0x5c, 0xbd, 
	0xd9, 0xce, 0x79, 0xbe, 0x72, 0xce, 0xcd, 0xbb, 0x53, 0xb1, 0xab, 0x3b, 
	0x5a, 0x75, 0x55, 0x3e, 0x46, 0xfe, 0xff, 0xff, 0x04, 0x00, 0x00, 0x00, 
	0x00, 0x01, 0x00, 0x00, 0xf0, 0x28, 0x76, 0x3c, 0x40, 0xb7, 0x3c, 0xbc, 
	0x74, 0x34, 0x9e, 0xba, 0x94, 0x56, 0xdf, 0xbb, 0xc5, 0x76, 0x8c, 0x3c, 
	0xf0, 0xed, 0x38, 0xbd, 0xab, 0x6f, 0xa9, 0xbc, 0x71, 0x64, 0x06, 0xbc, 
	0x00, 0x00, 0x00, 0x00, 0x00, 0x00, 0x00, 0x00, 0x1c, 0x40, 0xa1, 0xbc, 
	0x32, 0xdc, 0x67, 0x3c, 0x00, 0x00, 0x00, 0x00, 0x58, 0x88, 0x1c, 0xbc, 
	0x76, 0xc0, 0xbc, 0x3c, 0x47, 0x5a, 0xb7, 0x3c, 0x22, 0xe3, 0x30, 0x3b, 
	0xbe, 0x96, 0x15, 0xbd, 0x99, 0x6c, 0xc5, 0x3c, 0x82, 0x09, 0x8b, 0xbc, 
	0xbf, 0x85, 0x81, 0x3b, 0xd9, 0x00, 0x3f, 0x3b, 0x7f, 0x8b, 0x88, 0xbc, 
	0xc5, 0x17, 0x9b, 0xbc, 0x81, 0xb8, 0xf0, 0xbc, 0xb1, 0x8b, 0x86, 0xbc, 
	0x32, 0xbb, 0xa7, 0xbc, 0x78, 0x5f, 0xb9, 0xbb, 0xcf, 0x72, 0x92, 0x3c, 
	0x92, 0x30, 0x0b, 0xba, 0x00, 0x00, 0x00, 0x00, 0xd7, 0x44, 0x69, 0xbc, 
	0x3f, 0x00, 0xae, 0x3c, 0xa9, 0x2e, 0x29, 0x3c, 0x0b, 0xf4, 0x47, 0xbc, 
	0x14, 0xc5, 0xde, 0xbb, 0xeb, 0x39, 0x6d, 0xbc, 0x00, 0x00, 0x00, 0x00, 
	0x8d, 0xde, 0x1a, 0xbc, 0x9d, 0x76, 0xe6, 0x3e, 0x00, 0x00, 0x00, 0x00, 
	0xce, 0x35, 0x5e, 0xbd, 0xcf, 0x57, 0x2d, 0xbb, 0xb8, 0x26, 0x0d, 0x3c, 
	0xcd, 0x7d, 0xa4, 0xbb, 0x44, 0x9c, 0x29, 0x3d, 0x52, 0x79, 0x9a, 0x3c, 
	0x25, 0x83, 0x16, 0xbb, 0xca, 0x1e, 0x07, 0x3c, 0x4e, 0x83, 0x4a, 0x3d, 
	0xd9, 0x7d, 0xc1, 0xbc, 0x00, 0x00, 0x00, 0x00, 0x4a, 0x4c, 0xf7, 0xbc, 
	0x89, 0x00, 0x0c, 0xbc, 0xa5, 0xf1, 0x8c, 0x3c, 0xc7, 0x51, 0x8f, 0x3c, 
	0xf9, 0x24, 0xbd, 0xbc, 0x46, 0xa7, 0xb3, 0xbc, 0x32, 0x6a, 0xa5, 0xbc, 
	0x00, 0xdb, 0xbc, 0xba, 0x16, 0xff, 0x92, 0xbc, 0x56, 0xf9, 0x11, 0xbd, 
	0x71, 0x7f, 0xcd, 0xbc, 0x86, 0x60, 0x47, 0xbc, 0x52, 0xff, 0xff, 0xff, 
	0x04, 0x00, 0x00, 0x00, 0x14, 0x00, 0x00, 0x00, 0xd5, 0xa6, 0x17, 0x3c, 
	0x6d, 0xc0, 0xf4, 0xbb, 0xe3, 0x65, 0xfb, 0x3b, 0x67, 0x93, 0xa2, 0xbc, 
	0xb4, 0x21, 0x20, 0xbb, 0x72, 0xff, 0xff, 0xff, 0x04, 0x00, 0x00, 0x00, 
	0x80, 0x00, 0x00, 0x00, 0x6d, 0x02, 0xf6, 0xbb, 0x80, 0xe9, 0x5e, 0x3c, 
	0x00, 0x00, 0x00, 0x00, 0x00, 0x00, 0x00, 0x00, 0x8b, 0x5b, 0x13, 0xbc, 
	0x4c, 0xc4, 0xf7, 0xbb, 0x76, 0x84, 0x55, 0xbc, 0xcd, 0x4a, 0xf1, 0x3d, 
	0xee, 0x20, 0xad, 0xba, 0x61, 0x9a, 0xb3, 0xbc, 0x83, 0xf7, 0x66, 0xbc, 
	0x3a, 0x28, 0x1d, 0xbd, 0xcf, 0x2a, 0x01, 0xbc, 0x10, 0x9c, 0x8f, 0xbc, 
	0xf7, 0x7f, 0xa7, 0xba, 0x1c, 0xe0, 0x2e, 0x3c, 0x89, 0x81, 0x40, 0xbc, 
	0x19, 0xd5, 0x1d, 0xbc, 0x2f, 0x23, 0x00, 0x3c, 0xdc, 0x38, 0xfc, 0xba, 
	0xee, 0x55, 0x2c, 0x3c, 0xa2, 0x18, 0x8d, 0xbc, 0xd1, 0xe7, 0x51, 0xbc, 
	0xa6, 0x10, 0xf3, 0x3b, 0x61, 0xca, 0x66, 0x3c, 0x00, 0x00, 0x00, 0x00, 
	0xa6, 0xe4, 0xd3, 0xbc, 0x89, 0x28, 0x8b, 0x39, 0x3a, 0xa6, 0x37, 0x3c, 
	0xc2, 0x45, 0xea, 0x3a, 0xd5, 0xf5, 0xf9, 0xba, 0x6b, 0x54, 0x90, 0xbb, 
	0x00, 0x00, 0x06, 0x00, 0x08, 0x00, 0x04, 0x00, 0x06, 0x00, 0x00, 0x00, 
	0x04, 0x00, 0x00, 0x00, 0x80, 0x02, 0x00, 0x00, 0xce, 0x10, 0xe3, 0xbd, 
	0x71, 0x7d, 0xe5, 0x3d, 0xe0, 0xe4, 0x78, 0x3e, 0x80, 0x75, 0x2a, 0x3c, 
	0xa7, 0xfa, 0xd6, 0xbd, 0xe9, 0x1c, 0x3f, 0xbe, 0xf7, 0x82, 0xaf, 0x3e, 
	0xee, 0x07, 0xc6, 0x3e, 0xc8, 0x0d, 0x85, 0xbe, 0xcc, 0xd6, 0x1f, 0x3e, 
	0x41, 0xbf, 0xb6, 0x3e, 0xce, 0x97, 0x02, 0x3e, 0x8a, 0x8d, 0xb2, 0x3d, 
	0x6f, 0x77, 0xac, 0xbe, 0x2f, 0x40, 0xb3, 0xbe, 0xa0, 0x94, 0xae, 0x3c, 
	0x8b, 0x6a, 0x80, 0xbe, 0xf4, 0x7d, 0xd2, 0xbd, 0x31, 0x2c, 0x61, 0x3e, 
	0x04, 0xfd, 0x40, 0xbb, 0xf0, 0x48, 0xc4, 0x3e, 0xde, 0xe1, 0xc2, 0x3e, 
	0x56, 0xeb, 0x9b, 0xbe, 0x9f, 0x93, 0xce, 0x3e, 0x89, 0xdd, 0x09, 0xbe, 
	0x18, 0x17, 0x5e, 0xbd, 0x43, 0xb6, 0xed, 0xbb, 0x71, 0xe4, 0xa7, 0xbe, 
	0xc6, 0x37, 0x99, 0x3d, 0x9f, 0xb0, 0x0c, 0xbe, 0x7c, 0x53, 0xef, 0xbe, 
	0x54, 0xc1, 0x55, 0x3d, 0xa9, 0xc2, 0x9e, 0xbe, 0x21, 0xfa, 0xc7, 0xbe, 
	0x38, 0xb1, 0x0e, 0xbe, 0x60, 0xcf, 0x72, 0xbd, 0x35, 0x06, 0xa3, 0x3e, 
	0x59, 0xa2, 0x48, 0x3e, 0x4c, 0xa5, 0xc7, 0x3d, 0x6a, 0x69, 0xde, 0x3d, 
	0xb4, 0xb6, 0xd8, 0x3d, 0x6c, 0x8e, 0x7b, 0x3e, 0xf5, 0xdf, 0x6a, 0x3e, 
	0xd4, 0xc7, 0x78, 0x3e, 0x7c, 0x4e, 0xf6, 0x3b, 0xca, 0xb5, 0xb0, 0xbd, 
	0xfc, 0x5b, 0x03, 0xbc, 0xdf, 0xea, 0xfa, 0xbd, 0x87, 0xca, 0xb8, 0x3e, 
	0xbd, 0x51, 0xf6, 0x3d, 0x5c, 0xa0, 0xa9, 0xbe, 0x66, 0x3c, 0x9b, 0xbd, 
	0x6d, 0xa8, 0xbe, 0xbe, 0x59, 0xf3, 0xc2, 0xbe, 0xef, 0x18, 0x67, 0x3e, 
	0xb4, 0x93, 0x20, 0x3e, 0xa4, 0x4e, 0x85, 0x3e, 0x0c, 0x20, 0x14, 0xbe, 
	0x97, 0xc5, 0x81, 0x3e, 0xaa, 0x3f, 0xbb, 0xbe, 0x54, 0x77, 0x75, 0xbe, 
	0x45, 0x37, 0xbd, 0xbe, 0x5f, 0xf8, 0xbe, 0x3e, 0x66, 0x45, 0x78, 0x3d, 
	0xa7, 0x9a, 0xab, 0xbe, 0xc9, 0x07, 0x59, 0x3e, 0x58, 0x31, 0x9f, 0x3d, 
	0x28, 0x64, 0x30, 0xbd, 0x45, 0x2b, 0xd8, 0x3d, 0x5d, 0xab, 0xb1, 0xbe, 
	0x1c, 0x48, 0xa7, 0xbe, 0xf9, 0x04, 0x08, 0xbe, 0x46, 0xa1, 0x88, 0x3e, 
	0x10, 0x6d, 0x89, 0x3e, 0x35, 0xf5, 0x25, 0xbe, 0xd7, 0x63, 0x3b, 0x3e, 
	0x5a, 0x20, 0x10, 0xbe, 0x5a, 0xac, 0x63, 0xbe, 0xeb, 0x14, 0xfc, 0x3d, 
	0xa9, 0xb3, 0xaa, 0x3e, 0x93, 0x90, 0x88, 0xbe, 0xad, 0x7c, 0xa3, 0x3e, 
	0xb1, 0x63, 0xd3, 0x3e, 0xb3, 0xd6, 0x76, 0x3d, 0xf5, 0xdd, 0xa6, 0xbe, 
	0xa6, 0x23, 0xa9, 0xbd, 0xb9, 0x90, 0x77, 0x3e, 0xb9, 0xa0, 0x4c, 0x3c, 
	0x16, 0xd9, 0x57, 0x3e, 0x38, 0x3c, 0x33, 0x3d, 0x70, 0xb0, 0xbd, 0x3e, 
	0x78, 0xdc, 0xb2, 0x3e, 0x72, 0xd0, 0x91, 0xbe, 0xb5, 0xe6, 0x60, 0xbc, 
	0x96, 0x47, 0xc0, 0xbe, 0xb1, 0x4b, 0x3d, 0x3e, 0x1c, 0x1a, 0xce, 0x3d, 
	0xd5, 0x2e, 0x14, 0xbc, 0x94, 0x73, 0xda, 0xbd, 0x58, 0x00, 0xb5, 0xbe, 
	0xfe, 0xfa, 0x41, 0x3e, 0xc8, 0x0c, 0x9e, 0xbe, 0x94, 0x6e, 0x86, 0x3e, 
	0x68, 0xa8, 0x33, 0xbd, 0x24, 0x27, 0x0f, 0xbe, 0x1c, 0xba, 0x13, 0x3e, 
	0x19, 0x53, 0xbb, 0xbd, 0x87, 0x01, 0x24, 0xbe, 0x60, 0x13, 0xf2, 0xbd, 
	0xff, 0x6b, 0xbb, 0x3e, 0x42, 0xaa, 0x88, 0x3e, 0x17, 0x7a, 0x58, 0xbd, 
	0xa5, 0x8c, 0xd5, 0x3d, 0xdf, 0x20, 0x99, 0x3e, 0x86, 0xa5, 0xb6, 0x3d, 
	0x59, 0xad, 0x87, 0x3e, 0x44, 0x9e, 0xb2, 0xbe, 0x19, 0x35, 0x33, 0x3d, 
	0x07, 0x27, 0xa4, 0x3e, 0xa1, 0x11, 0xbb, 0xbe, 0x8c, 0xd0, 0x2f, 0x3e, 
	0x2d, 0xd6, 0xc0, 0xbe, 0xc7, 0x4d, 0xd9, 0xbd, 0x27, 0xff, 0xe8, 0xbc, 
	0xc1, 0xd9, 0xa4, 0xbe, 0x8e, 0x50, 0x07, 0x3e, 0x7c, 0x65, 0x53, 0x3e, 
	0x63, 0x82, 0xe3, 0xbd, 0xd1, 0x1c, 0x4e, 0xbe, 0x72, 0x57, 0x2b, 0xbd, 
	0x8a, 0xc7, 0xad, 0x3e, 0xc0, 0xf2, 0x23, 0x3d, 0x2e, 0x13, 0xfe, 0x3d, 
	0xf9, 0x9e, 0xb8, 0xbe, 0x66, 0xc4, 0x3c, 0xbe, 0x32, 0x13, 0x4b, 0x3e, 
	0x6c, 0xb9, 0x0c, 0x3e, 0x0b, 0xfa, 0x79, 0x3e, 0x4f, 0x50, 0xee, 0x3c, 
	0x6d, 0xdf, 0xec, 0xbd, 0xb6, 0xab, 0xa3, 0xbc, 0xc3, 0x06, 0xdc, 0x3d, 
	0x35, 0x60, 0x68, 0x3e, 0x83, 0x54, 0xaf, 0xbe, 0x5e, 0xfe, 0x92, 0x3e, 
	0x5a, 0xbe, 0xaf, 0x3e, 0x08, 0xc0, 0x7e, 0xbe, 0x48, 0x4e, 0xcf, 0xbc, 
	0x9a, 0xa7, 0x21, 0xbd, 0x23, 0x44, 0xa9, 0x3e, 0x29, 0xcd, 0xbf, 0x3e, 
	0xe1, 0x94, 0x82, 0xbe, 0xbf, 0xdf, 0xc2, 0x3c, 0xfc, 0x33, 0x90, 0xbe, 
	0x46, 0x6c, 0xb4, 0xbc, 0x43, 0x81, 0x9d, 0xbd, 0x40, 0xf3, 0x72, 0x3e, 
	0xd6, 0x2f, 0x82, 0xbe, 0x55, 0x11, 0x3d, 0x3d, 0x1b, 0xe4, 0x96, 0xbe, 
	0xcc, 0xfa, 0xff, 0xff, 0xd0, 0xfa, 0xff, 0xff, 0x0f, 0x00, 0x00, 0x00, 
	0x4d, 0x4c, 0x49, 0x52, 0x20, 0x43, 0x6f, 0x6e, 0x76, 0x65, 0x72, 0x74, 
	0x65, 0x64, 0x2e, 0x00, 0x01, 0x00, 0x00, 0x00, 0x14, 0x00, 0x00, 0x00, 
	0x00, 0x00, 0x0e, 0x00, 0x18, 0x00, 0x14, 0x00, 0x10, 0x00, 0x0c, 0x00, 
	0x08, 0x00, 0x04, 0x00, 0x0e, 0x00, 0x00, 0x00, 0x14, 0x00, 0x00, 0x00, 
	0x1c, 0x00, 0x00, 0x00, 0xe4, 0x00, 0x00, 0x00, 0xe8, 0x00, 0x00, 0x00, 
	0xec, 0x00, 0x00, 0x00, 0x04, 0x00, 0x00, 0x00, 0x6d, 0x61, 0x69, 0x6e, 
	0x00, 0x00, 0x00, 0x00, 0x03, 0x00, 0x00, 0x00, 0x8c, 0x00, 0x00, 0x00, 
	0x38, 0x00, 0x00, 0x00, 0x04, 0x00, 0x00, 0x00, 0x8e, 0xff, 0xff, 0xff, 
	0x10, 0x00, 0x00, 0x00, 0x00, 0x00, 0x00, 0x08, 0x0c, 0x00, 0x00, 0x00, 
	0x10, 0x00, 0x00, 0x00, 0x48, 0xfb, 0xff, 0xff, 0x01, 0x00, 0x00, 0x00, 
	0x09, 0x00, 0x00, 0x00, 0x03, 0x00, 0x00, 0x00, 0x08, 0x00, 0x00, 0x00, 
	0x01, 0x00, 0x00, 0x00, 0x03, 0x00, 0x00, 0x00, 0xbe, 0xff, 0xff, 0xff, 
	0x1c, 0x00, 0x00, 0x00, 0x00, 0x00, 0x00, 0x08, 0x1c, 0x00, 0x00, 0x00, 
	0x20, 0x00, 0x00, 0x00, 0x0c, 0x00, 0x08, 0x00, 0x07, 0x00, 0x00, 0x00, 
	0x00, 0x00, 0x06, 0x00, 0x0c, 0x00, 0x00, 0x00, 0x00, 0x00, 0x01, 0x01, 
	0x01, 0x00, 0x00, 0x00, 0x08, 0x00, 0x00, 0x00, 0x03, 0x00, 0x00, 0x00, 
	0x07, 0x00, 0x00, 0x00, 0x06, 0x00, 0x00, 0x00, 0x02, 0x00, 0x00, 0x00, 
	0x00, 0x00, 0x0e, 0x00, 0x16, 0x00, 0x00, 0x00, 0x10, 0x00, 0x0c, 0x00, 
	0x0b, 0x00, 0x04, 0x00, 0x0e, 0x00, 0x00, 0x00, 0x18, 0x00, 0x00, 0x00, 
	0x00, 0x00, 0x00, 0x08, 0x18, 0x00, 0x00, 0x00, 0x1c, 0x00, 0x00, 0x00, 
	0x00, 0x00, 0x06, 0x00, 0x08, 0x00, 0x07, 0x00, 0x06, 0x00, 0x00, 0x00, 
	0x00, 0x00, 0x00, 0x01, 0x01, 0x00, 0x00, 0x00, 0x07, 0x00, 0x00, 0x00, 
	0x03, 0x00, 0x00, 0x00, 0x00, 0x00, 0x00, 0x00, 0x05, 0x00, 0x00, 0x00, 
	0x04, 0x00, 0x00, 0x00, 0x01, 0x00, 0x00, 0x00, 0x09, 0x00, 0x00, 0x00, 
	0x01, 0x00, 0x00, 0x00, 0x00, 0x00, 0x00, 0x00, 0x0a, 0x00, 0x00, 0x00, 
	0xd4, 0x03, 0x00, 0x00, 0x70, 0x03, 0x00, 0x00, 0x00, 0x03, 0x00, 0x00, 
	0xa8, 0x02, 0x00, 0x00, 0x54, 0x02, 0x00, 0x00, 0x0c, 0x02, 0x00, 0x00, 
	0x90, 0x01, 0x00, 0x00, 0xf0, 0x00, 0x00, 0x00, 0x60, 0x00, 0x00, 0x00, 
	0x04, 0x00, 0x00, 0x00, 0x6a, 0xfc, 0xff, 0xff, 0x00, 0x00, 0x00, 0x01, 
	0x14, 0x00, 0x00, 0x00, 0x1c, 0x00, 0x00, 0x00, 0x1c, 0x00, 0x00, 0x00, 
	0x0a, 0x00, 0x00, 0x00, 0x34, 0x00, 0x00, 0x00, 0x02, 0x00, 0x00, 0x00, 
	0xff, 0xff, 0xff, 0xff, 0x05, 0x00, 0x00, 0x00, 0x54, 0xfc, 0xff, 0xff, 
	0x19, 0x00, 0x00, 0x00, 0x53, 0x74, 0x61, 0x74, 0x65, 0x66, 0x75, 0x6c, 
	0x50, 0x61, 0x72, 0x74, 0x69, 0x74, 0x69, 0x6f, 0x6e, 0x65, 0x64, 0x43, 
	0x61, 0x6c, 0x6c, 0x3a, 0x30, 0x00, 0x00, 0x00, 0x02, 0x00, 0x00, 0x00, 
	0x01, 0x00, 0x00, 0x00, 0x05, 0x00, 0x00, 0x00, 0xc2, 0xfc, 0xff, 0xff, 
	0x00, 0x00, 0x00, 0x01, 0x14, 0x00, 0x00, 0x00, 0x1c, 0x00, 0x00, 0x00, 
	0x1c, 0x00, 0x00, 0x00, 0x09, 0x00, 0x00, 0x00, 0x68, 0x00, 0x00, 0x00, 
	0x02, 0x00, 0x00, 0x00, 0xff, 0xff, 0xff, 0xff, 0x20, 0x00, 0x00, 0x00, 
	0xac, 0xfc, 0xff, 0xff, 0x4c, 0x00, 0x00, 0x00, 0x73, 0x65, 0x71, 0x75, 
	0x65, 0x6e, 0x74, 0x69, 0x61, 0x6c, 0x2f, 0x64, 0x65, 0x6e, 0x73, 0x65, 
	0x5f, 0x31, 0x2f, 0x4d, 0x61, 0x74, 0x4d, 0x75, 0x6c, 0x3b, 0x73, 0x65, 
	0x71, 0x75, 0x65, 0x6e, 0x74, 0x69, 0x61, 0x6c, 0x2f, 0x64, 0x65, 0x6e, 
	0x73, 0x65, 0x5f, 0x31, 0x2f, 0x52, 0x65, 0x6c, 0x75, 0x3b, 0x73, 0x65, 
	0x71, 0x75, 0x65, 0x6e, 0x74, 0x69, 0x61, 0x6c, 0x2f, 0x64, 0x65, 0x6e, 
	0x73, 0x65, 0x5f, 0x31, 0x2f, 0x42, 0x69, 0x61, 0x73, 0x41, 0x64, 0x64, 
	0x00, 0x00, 0x00, 0x00, 0x02, 0x00, 0x00, 0x00, 0x01, 0x00, 0x00, 0x00, 
	0x20, 0x00, 0x00, 0x00, 0x4e, 0xfd, 0xff, 0xff, 0x00, 0x00, 0x00, 0x01, 
	0x14, 0x00, 0x00, 0x00, 0x1c, 0x00, 0x00, 0x00, 0x1c, 0x00, 0x00, 0x00, 
	0x08, 0x00, 0x00, 0x00, 0x60, 0x00, 0x00, 0x00, 0x02, 0x00, 0x00, 0x00, 
	0xff, 0xff, 0xff, 0xff, 0x40, 0x00, 0x00, 0x00, 0x38, 0xfd, 0xff, 0xff, 
	0x46, 0x00, 0x00, 0x00, 0x73, 0x65, 0x71, 0x75, 0x65, 0x6e, 0x74, 0x69, 
	0x61, 0x6c, 0x2f, 0x64, 0x65, 0x6e, 0x73, 0x65, 0x2f, 0x4d, 0x61, 0x74, 
	0x4d, 0x75, 0x6c, 0x3b, 0x73, 0x65, 0x71, 0x75, 0x65, 0x6e, 0x74, 0x69, 
	0x61, 0x6c, 0x2f, 0x64, 0x65, 0x6e, 0x73, 0x65, 0x2f, 0x52, 0x65, 0x6c, 
	0x75, 0x3b, 0x73, 0x65, 0x71, 0x75, 0x65, 0x6e, 0x74, 0x69, 0x61, 0x6c, 
	0x2f, 0x64, 0x65, 0x6e, 0x73, 0x65, 0x2f, 0x42, 0x69, 0x61, 0x73, 0x41, 
	0x64, 0x64, 0x00, 0x00, 0x02, 0x00, 0x00, 0x00, 0x01, 0x00, 0x00, 0x00, 
	0x40, 0x00, 0x00, 0x00, 0x00, 0x00, 0x16, 0x00, 0x1c, 0x00, 0x18, 0x00, 
	0x17, 0x00, 0x10, 0x00, 0x0c, 0x00, 0x08, 0x00, 0x00, 0x00, 0x00, 0x00, 
	0x00, 0x00, 0x07, 0x00, 0x16, 0x00, 0x00, 0x00, 0x00, 0x00, 0x00, 0x01, 
	0x20, 0x00, 0x00, 0x00, 0x40, 0x00, 0x00, 0x00, 0x07, 0x00, 0x00, 0x00, 
	0x00, 0x00, 0x00, 0x09, 0x54, 0x00, 0x00, 0x00, 0x0c, 0x00, 0x0c, 0x00, 
	0x00, 0x00, 0x00, 0x00, 0x08, 0x00, 0x04, 0x00, 0x0c, 0x00, 0x00, 0x00, 
	0x08, 0x00, 0x00, 0x00, 0x14, 0x00, 0x00, 0x00, 0x01, 0x00, 0x00, 0x00, 
	0x00, 0x00, 0x00, 0x00, 0x00, 0x00, 0x00, 0x00, 0x00, 0x00, 0x00, 0x00, 
	0x01, 0x00, 0x00, 0x00, 0x66, 0x21, 0xd1, 0x3b, 0x19, 0x00, 0x00, 0x00, 
	0x73, 0x65, 0x71, 0x75, 0x65, 0x6e, 0x74, 0x69, 0x61, 0x6c, 0x2f, 0x64, 
	0x65, 0x6e, 0x73, 0x65, 0x5f, 0x31, 0x2f, 0x4d, 0x61, 0x74, 0x4d, 0x75, 
	0x6c, 0x00, 0x00, 0x00, 0x02, 0x00, 0x00, 0x00, 0x20, 0x00, 0x00, 0x00, 
	0x40, 0x00, 0x00, 0x00, 0xc2, 0xfe, 0xff, 0xff, 0x00, 0x00, 0x00, 0x01, 
	0x10, 0x00, 0x00, 0x00, 0x10, 0x00, 0x00, 0x00, 0x06, 0x00, 0x00, 0x00, 
	0x24, 0x00, 0x00, 0x00, 0x3c, 0xfe, 0xff, 0xff, 0x17, 0x00, 0x00, 0x00, 
	0x73, 0x65, 0x71, 0x75, 0x65, 0x6e, 0x74, 0x69, 0x61, 0x6c, 0x2f, 0x64, 
	0x65, 0x6e, 0x73, 0x65, 0x2f, 0x4d, 0x61, 0x74, 0x4d, 0x75, 0x6c, 0x00, 
	0x02, 0x00, 0x00, 0x00, 0x40, 0x00, 0x00, 0x00, 0x08, 0x00, 0x00, 0x00, 
	0x06, 0xff, 0xff, 0xff, 0x00, 0x00, 0x00, 0x01, 0x10, 0x00, 0x00, 0x00, 
	0x10, 0x00, 0x00, 0x00, 0x05, 0x00, 0x00, 0x00, 0x34, 0x00, 0x00, 0x00, 
	0x80, 0xfe, 0xff, 0xff, 0x27, 0x00, 0x00, 0x00, 0x73, 0x65, 0x71, 0x75, 
	0x65, 0x6e, 0x74, 0x69, 0x61, 0x6c, 0x2f, 0x64, 0x65, 0x6e, 0x73, 0x65, 
	0x2f, 0x42, 0x69, 0x61, 0x73, 0x41, 0x64, 0x64, 0x2f, 0x52, 0x65, 0x61, 
	0x64, 0x56, 0x61, 0x72, 0x69, 0x61, 0x62, 0x6c, 0x65, 0x4f, 0x70, 0x00, 
	0x01, 0x00, 0x00, 0x00, 0x40, 0x00, 0x00, 0x00, 0x56, 0xff, 0xff, 0xff, 
	0x00, 0x00, 0x00, 0x01, 0x10, 0x00, 0x00, 0x00, 0x10, 0x00, 0x00, 0x00, 
	0x04, 0x00, 0x00, 0x00, 0x38, 0x00, 0x00, 0x00, 0xd0, 0xfe, 0xff, 0xff, 
	0x29, 0x00, 0x00, 0x00, 0x73, 0x65, 0x71, 0x75, 0x65, 0x6e, 0x74, 0x69, 
	0x61, 0x6c, 0x2f, 0x64, 0x65, 0x6e, 0x73, 0x65, 0x5f, 0x32, 0x2f, 0x42, 
	0x69, 0x61, 0x73, 0x41, 0x64, 0x64, 0x2f, 0x52, 0x65, 0x61, 0x64, 0x56, 
	0x61, 0x72, 0x69, 0x61, 0x62, 0x6c, 0x65, 0x4f, 0x70, 0x00, 0x00, 0x00, 
	0x01, 0x00, 0x00, 0x00, 0x05, 0x00, 0x00, 0x00, 0xaa, 0xff, 0xff, 0xff, 
	0x00, 0x00, 0x00, 0x01, 0x10, 0x00, 0x00, 0x00, 0x10, 0x00, 0x00, 0x00, 
	0x03, 0x00, 0x00, 0x00, 0x38, 0x00, 0x00, 0x00, 0x24, 0xff, 0xff, 0xff, 
	0x29, 0x00, 0x00, 0x00, 0x73, 0x65, 0x71, 0x75, 0x65, 0x6e, 0x74, 0x69, 
	0x61, 0x6c, 0x2f, 0x64, 0x65, 0x6e, 0x73, 0x65, 0x5f, 0x31, 0x2f, 0x42, 
	0x69, 0x61, 0x73, 0x41, 0x64, 0x64, 0x2f, 0x52, 0x65, 0x61, 0x64, 0x56, 
	0x61, 0x72, 0x69, 0x61, 0x62, 0x6c, 0x65, 0x4f, 0x70, 0x00, 0x00, 0x00, 
	0x01, 0x00, 0x00, 0x00, 0x20, 0x00, 0x00, 0x00, 0x00, 0x00, 0x16, 0x00, 
	0x18, 0x00, 0x14, 0x00, 0x00, 0x00, 0x10, 0x00, 0x0c, 0x00, 0x08, 0x00, 
	0x00, 0x00, 0x00, 0x00, 0x00, 0x00, 0x07, 0x00, 0x16, 0x00, 0x00, 0x00, 
	0x00, 0x00, 0x00, 0x01, 0x10, 0x00, 0x00, 0x00, 0x10, 0x00, 0x00, 0x00, 
	0x02, 0x00, 0x00, 0x00, 0x28, 0x00, 0x00, 0x00, 0x90, 0xff, 0xff, 0xff, 
	0x19, 0x00, 0x00, 0x00, 0x73, 0x65, 0x71, 0x75, 0x65, 0x6e, 0x74, 0x69, 
	0x61, 0x6c, 0x2f, 0x64, 0x65, 0x6e, 0x73, 0x65, 0x5f, 0x32, 0x2f, 0x4d, 
	0x61, 0x74, 0x4d, 0x75, 0x6c, 0x00, 0x00, 0x00, 0x02, 0x00, 0x00, 0x00, 
	0x05, 0x00, 0x00, 0x00, 0x20, 0x00, 0x00, 0x00, 0x00, 0x00, 0x16, 0x00, 
	0x1c, 0x00, 0x18, 0x00, 0x00, 0x00, 0x14, 0x00, 0x10, 0x00, 0x0c, 0x00, 
	0x00, 0x00, 0x00, 0x00, 0x08, 0x00, 0x07, 0x00, 0x16, 0x00, 0x00, 0x00, 
	0x00, 0x00, 0x00, 0x01, 0x14, 0x00, 0x00, 0x00, 0x20, 0x00, 0x00, 0x00, 
	0x20, 0x00, 0x00, 0x00, 0x01, 0x00, 0x00, 0x00, 0x3c, 0x00, 0x00, 0x00, 
	0x02, 0x00, 0x00, 0x00, 0xff, 0xff, 0xff, 0xff, 0x08, 0x00, 0x00, 0x00, 
	0x04, 0x00, 0x04, 0x00, 0x04, 0x00, 0x00, 0x00, 0x1d, 0x00, 0x00, 0x00, 
	0x73, 0x65, 0x72, 0x76, 0x69, 0x6e, 0x67, 0x5f, 0x64, 0x65, 0x66, 0x61, 
	0x75, 0x6c, 0x74, 0x5f, 0x64, 0x65, 0x6e, 0x73, 0x65, 0x5f, 0x69, 0x6e, 
	0x70, 0x75, 0x74, 0x3a, 0x30, 0x00, 0x00, 0x00, 0x02, 0x00, 0x00, 0x00, 
	0x01, 0x00, 0x00, 0x00, 0x08, 0x00, 0x00, 0x00, 0x01, 0x00, 0x00, 0x00, 
	0x10, 0x00, 0x00, 0x00, 0x0c, 0x00, 0x10, 0x00, 0x0f, 0x00, 0x00, 0x00, 
	0x08, 0x00, 0x04, 0x00, 0x0c, 0x00, 0x00, 0x00, 0x09, 0x00, 0x00, 0x00, 
	0x09, 0x00, 0x00, 0x00, 0x00, 0x00, 0x00, 0x09
};
const int model_data_len = 7112;